unsigned char sine_model_quantized_tflite[] = {
  0x24, 0x00, 0x00, 0x00, 0x54, 0x46, 0x4c, 0x33, 0x00, 0x00, 0x00, 0x00,
  0x00, 0x00, 0x00, 0x00, 0x14, 0x00, 0x20, 0x00, 0x04, 0x00, 0x08, 0x00,
  0x0c, 0x00, 0x10, 0x00, 0x14, 0x00, 0x00, 0x00, 0x18, 0x00, 0x1c, 0x00,
  0x14, 0x00, 0x00, 0x00, 0x03, 0x00, 0x00, 0x00, 0x70, 0x0b, 0x00, 0x00,
  0xe8, 0x06, 0x00, 0x00, 0xd0, 0x06, 0x00, 0x00, 0xb8, 0x00, 0x00, 0x00,
  0x80, 0x00, 0x00, 0x00, 0x04, 0x00, 0x00, 0x00, 0x01, 0x00, 0x00, 0x00,
  0x10, 0x00, 0x00, 0x00, 0x00, 0x00, 0x0a, 0x00, 0x10, 0x00, 0x04, 0x00,
  0x08, 0x00, 0x0c, 0x00, 0x0a, 0x00, 0x00, 0x00, 0x40, 0x00, 0x00, 0x00,
  0x1c, 0x00, 0x00, 0x00, 0x04, 0x00, 0x00, 0x00, 0x0f, 0x00, 0x00, 0x00,
  0x73, 0x65, 0x72, 0x76, 0x69, 0x6e, 0x67, 0x5f, 0x64, 0x65, 0x66, 0x61,
  0x75, 0x6c, 0x74, 0x00, 0x01, 0x00, 0x00, 0x00, 0x04, 0x00, 0x00, 0x00,
  0xc0, 0xff, 0xff, 0xff, 0x08, 0x00, 0x00, 0x00, 0x09, 0x00, 0x00, 0x00,
  0x07, 0x00, 0x00, 0x00, 0x64, 0x65, 0x6e, 0x73, 0x65, 0x5f, 0x32, 0x00,
  0x01, 0x00, 0x00, 0x00, 0x04, 0x00, 0x00, 0x00, 0xd6, 0xf9, 0xff, 0xff,
  0x04, 0x00, 0x00, 0x00, 0x0b, 0x00, 0x00, 0x00, 0x64, 0x65, 0x6e, 0x73,
  0x65, 0x5f, 0x69, 0x6e, 0x70, 0x75, 0x74, 0x00, 0x01, 0x00, 0x00, 0x00,
  0x0c, 0x00, 0x00, 0x00, 0x08, 0x00, 0x0c, 0x00, 0x04, 0x00, 0x08, 0x00,
  0x08, 0x00, 0x00, 0x00, 0x08, 0x00, 0x00, 0x00, 0x0b, 0x00, 0x00, 0x00,
  0x13, 0x00, 0x00, 0x00, 0x6d, 0x69, 0x6e, 0x5f, 0x72, 0x75, 0x6e, 0x74,
  0x69, 0x6d, 0x65, 0x5f, 0x76, 0x65, 0x72, 0x73, 0x69, 0x6f, 0x6e, 0x00,
  0x0c, 0x00, 0x00, 0x00, 0x08, 0x06, 0x00, 0x00, 0xf4, 0x05, 0x00, 0x00,
  0xd8, 0x05, 0x00, 0x00, 0x74, 0x05, 0x00, 0x00, 0x20, 0x05, 0x00, 0x00,
  0xcc, 0x04, 0x00, 0x00, 0xb8, 0x00, 0x00, 0x00, 0x64, 0x00, 0x00, 0x00,
  0x58, 0x00, 0x00, 0x00, 0x44, 0x00, 0x00, 0x00, 0x30, 0x00, 0x00, 0x00,
  0x04, 0x00, 0x00, 0x00, 0x56, 0xfa, 0xff, 0xff, 0x04, 0x00, 0x00, 0x00,
  0x10, 0x00, 0x00, 0x00, 0x31, 0x2e, 0x35, 0x2e, 0x30, 0x00, 0x00, 0x00,
  0x00, 0x00, 0x00, 0x00, 0x00, 0x00, 0x00, 0x00, 0x00, 0x00, 0x00, 0x00,
  0x00, 0x00, 0x00, 0x00, 0x00, 0x00, 0x00, 0x00, 0xe8, 0xf5, 0xff, 0xff,
  0x00, 0x00, 0x00, 0x00, 0x00, 0x00, 0x00, 0x00, 0x00, 0x00, 0x00, 0x00,
  0xf8, 0xf5, 0xff, 0xff, 0x00, 0x00, 0x00, 0x00, 0x00, 0x00, 0x00, 0x00,
  0x00, 0x00, 0x00, 0x00, 0x08, 0xf6, 0xff, 0xff, 0x00, 0x00, 0x00, 0x00,
  0xa6, 0xfa, 0xff, 0xff, 0x04, 0x00, 0x00, 0x00, 0x40, 0x00, 0x00, 0x00,
  0x90, 0xc7, 0xd6, 0x3f, 0x94, 0x46, 0xfe, 0xbe, 0x0c, 0x21, 0x13, 0x3f,
  0x08, 0x46, 0x67, 0xbf, 0x11, 0x79, 0xd4, 0xbd, 0x17, 0xbe, 0x82, 0xbf,
  0x8e, 0x67, 0x0d, 0xbf, 0x5c, 0x33, 0x3b, 0xbf, 0x30, 0x52, 0x5e, 0xbe,
  0x0c, 0xa6, 0x17, 0x3e, 0x51, 0xb0, 0x42, 0xbf, 0x5c, 0x5e, 0x0e, 0xbf,
  0x88, 0xb0, 0xc4, 0x3f, 0x6a, 0x2f, 0xb3, 0xbe, 0x78, 0x18, 0xa3, 0xbf,
  0x4f, 0xd4, 0xc1, 0x3e, 0x00, 0x00, 0x00, 0x00, 0xf6, 0xfa, 0xff, 0xff,
  0x04, 0x00, 0x00, 0x00, 0x00, 0x04, 0x00, 0x00, 0xdf, 0x16, 0xd5, 0x3e,
  0xee, 0xf5, 0x1f, 0xbe, 0x82, 0x4e, 0x51, 0xbe, 0x5f, 0x89, 0x7c, 0xbe,
  0xe1, 0x17, 0x3f, 0xbe, 0x94, 0xb5, 0x52, 0xbf, 0xc5, 0xfa, 0x9e, 0xbe,
  0x09, 0x9e, 0x98, 0x3e, 0x0c, 0xc1, 0xfa, 0x3d, 0x5e, 0xb4, 0x80, 0xbe,
  0xab, 0xc4, 0xbf, 0x3e, 0x1d, 0x2a, 0x2c, 0x3f, 0xe4, 0xd6, 0xcb, 0x3d,
  0xe5, 0x38, 0x81, 0x3e, 0x47, 0xe5, 0xb1, 0x3e, 0xa8, 0xe4, 0xb7, 0xbd,
  0x48, 0xd6, 0x00, 0xbe, 0xfc, 0x19, 0x8b, 0x3d, 0x9a, 0xc3, 0x4f, 0x3e,
  0xc0, 0x73, 0xea, 0xbc, 0x36, 0x79, 0x7e, 0x3e, 0xc2, 0x32, 0x9f, 0x3d,
  0x57, 0xfa, 0x9f, 0xbe, 0x17, 0xa9, 0x9b, 0x3e, 0xac, 0xe1, 0xdf, 0x3d,
  0x03, 0x3a, 0xc3, 0x3e, 0x59, 0xaf, 0xc5, 0x3e, 0x5a, 0xc8, 0x25, 0x3f,
  0x3d, 0x26, 0x91, 0x3e, 0xad, 0xc2, 0x8b, 0x3e, 0x9a, 0x09, 0x50, 0xbe,
  0xf2, 0xf7, 0x69, 0x3e, 0x70, 0x84, 0x13, 0x3d, 0x23, 0x7f, 0xc3, 0x3e,
  0x5e, 0x6d, 0x35, 0x3e, 0x35, 0x89, 0xf5, 0x3e, 0x77, 0x88, 0xd4, 0xbe,
  0x9a, 0x36, 0x84, 0xbd, 0x66, 0x72, 0x5e, 0x3e, 0x39, 0xfc, 0xd8, 0x3e,
  0x84, 0xe6, 0x87, 0xbe, 0x38, 0xbf, 0xd0, 0xbe, 0x50, 0x10, 0x31, 0x3d,
  0x27, 0xc4, 0xda, 0xbe, 0xb0, 0x8e, 0x59, 0xbe, 0x74, 0xbc, 0xa0, 0xbe,
  0x81, 0x7f, 0xc7, 0xbd, 0xeb, 0x6d, 0x81, 0x3e, 0xf6, 0xc9, 0x2b, 0xbe,
  0x00, 0x58, 0xc5, 0x3c, 0x35, 0xeb, 0x84, 0xbe, 0xb9, 0x44, 0x97, 0xbf,
  0x0d, 0x27, 0xd6, 0x3e, 0xe4, 0xed, 0x5d, 0xbd, 0x5d, 0x4a, 0x95, 0xbe,
  0x3c, 0x96, 0xbc, 0xbe, 0x4c, 0x10, 0xbf, 0xbd, 0xec, 0x5e, 0x35, 0xbe,
  0x20, 0xb7, 0xd3, 0x3c, 0x8b, 0x39, 0x8f, 0x3e, 0x30, 0x22, 0x03, 0xbd,
  0x8a, 0x31, 0x15, 0x3e, 0x2b, 0x84, 0xa1, 0xbc, 0xc2, 0x32, 0x1d, 0x3e,
  0x2e, 0xe1, 0x14, 0x3e, 0x05, 0xd5, 0xae, 0x3e, 0x20, 0x47, 0x76, 0x3c,
  0x23, 0xd9, 0x16, 0x3e, 0x45, 0x91, 0x68, 0xbe, 0x67, 0xb5, 0xe8, 0xbe,
  0x7f, 0xe8, 0x8b, 0xbe, 0x84, 0xf1, 0x87, 0xbe, 0x59, 0x78, 0xd9, 0xbe,
  0x4c, 0x64, 0xb3, 0xbd, 0x4c, 0xcc, 0xff, 0xbd, 0xdc, 0xf8, 0x56, 0xbe,
  0xdc, 0x59, 0x9f, 0xbd, 0xd2, 0x4f, 0x1c, 0x3e, 0xbf, 0x05, 0xe4, 0x3e,
  0xec, 0xd7, 0x7d, 0xbe, 0x22, 0x5c, 0x8e, 0xbe, 0x86, 0x00, 0x55, 0x3e,
  0x5b, 0xbb, 0x61, 0xbe, 0xd8, 0x4c, 0xcc, 0x3d, 0x7c, 0xc0, 0xa0, 0x3d,
  0x7f, 0x86, 0x0f, 0xbf, 0x38, 0x11, 0x56, 0xbe, 0xc2, 0xee, 0x36, 0x3e,
  0x90, 0x06, 0xbd, 0xbe, 0x33, 0x76, 0x5f, 0xbe, 0x92, 0x3a, 0xce, 0xbe,
  0x06, 0x44, 0x6a, 0xbc, 0x2e, 0x8c, 0x82, 0xbe, 0xcf, 0x3d, 0x9a, 0x3e,
  0xb9, 0x8f, 0x03, 0x3f, 0xe0, 0x6d, 0x5c, 0xbd, 0xe2, 0x3d, 0xae, 0xbe,
  0x20, 0x78, 0xdf, 0x3c, 0x20, 0xc4, 0xe1, 0xbc, 0x33, 0x19, 0x48, 0x3e,
  0x92, 0xf8, 0x07, 0x3e, 0xa8, 0x91, 0x1f, 0xbf, 0x93, 0x2f, 0x95, 0x3e,
  0x5f, 0x37, 0x89, 0x3e, 0xeb, 0x6f, 0x8e, 0x3e, 0x23, 0x2f, 0xa4, 0x3e,
  0x27, 0xe8, 0x6a, 0xbe, 0x34, 0x01, 0xbd, 0x3e, 0xd1, 0x89, 0x8b, 0x3e,
  0xfa, 0xde, 0x33, 0xbe, 0xb7, 0x9b, 0x29, 0x3e, 0x40, 0x32, 0xde, 0x3c,
  0x9f, 0x7a, 0xd9, 0xbe, 0x20, 0x2e, 0x28, 0x3d, 0xce, 0xe7, 0xa7, 0xbe,
  0xd5, 0x03, 0x47, 0xbf, 0x60, 0xf7, 0x80, 0x3d, 0x47, 0x50, 0x25, 0xbf,
  0x51, 0x02, 0xc5, 0x3e, 0xb0, 0xf8, 0x86, 0x3d, 0xb8, 0xea, 0x16, 0xbe,
  0x10, 0x85, 0xb1, 0xbd, 0x96, 0x7a, 0x4c, 0x3e, 0x33, 0x00, 0x2f, 0x3f,
  0xd0, 0xa6, 0xf5, 0xbd, 0x98, 0xa6, 0xc1, 0xbe, 0x20, 0xa1, 0xf8, 0x3d,
  0x92, 0xb5, 0x6b, 0x3e, 0x1c, 0xbc, 0xc1, 0xbe, 0x3f, 0xc4, 0x93, 0x3e,
  0x3d, 0x75, 0x64, 0xbe, 0xb9, 0x8c, 0x9a, 0x3d, 0x57, 0x21, 0xb3, 0x3e,
  0xa4, 0x21, 0xc7, 0xbc, 0xd9, 0x8a, 0x5c, 0xbe, 0xec, 0x4e, 0xb0, 0xbd,
  0x1f, 0x58, 0x97, 0xbe, 0x9a, 0xb1, 0x45, 0x3e, 0x31, 0xf1, 0x9a, 0x3e,
  0x16, 0xa7, 0x10, 0xbe, 0xd8, 0x33, 0x2d, 0xbd, 0xb9, 0xc0, 0x9a, 0x3e,
  0x77, 0x06, 0x9b, 0x3e, 0x08, 0x04, 0x5d, 0x3d, 0xbe, 0xa0, 0xba, 0xbe,
  0x59, 0x67, 0xa4, 0x3e, 0xe2, 0xca, 0x3e, 0xbe, 0x50, 0x04, 0xc7, 0xbe,
  0x5f, 0x2b, 0xa3, 0x3e, 0x2a, 0x82, 0x38, 0x3e, 0xc0, 0x66, 0xdb, 0x3c,
  0x70, 0x05, 0x3f, 0xbd, 0xb9, 0x30, 0xd8, 0x3e, 0xad, 0x17, 0x9f, 0x3e,
  0x60, 0xd3, 0x19, 0xbd, 0xd0, 0xec, 0x18, 0xbe, 0x54, 0x5b, 0xa5, 0x3d,
  0x10, 0x8c, 0x25, 0xbe, 0x00, 0x4e, 0x07, 0x3d, 0x20, 0x8b, 0x3e, 0xbe,
  0xd4, 0xe3, 0xa2, 0xbd, 0x1e, 0xc7, 0x18, 0xbe, 0x55, 0xb1, 0xdc, 0x3e,
  0xe9, 0xeb, 0x6c, 0xbc, 0xe6, 0xe2, 0x50, 0x3e, 0xf3, 0xcf, 0x00, 0xbf,
  0x27, 0xc5, 0x83, 0x3e, 0x30, 0x59, 0xeb, 0xbc, 0xa9, 0x43, 0xa9, 0x3e,
  0x6a, 0x1f, 0x68, 0xbe, 0xb8, 0xd8, 0x7e, 0x3d, 0x44, 0x36, 0x10, 0x3f,
  0x30, 0x05, 0xb3, 0xbc, 0x00, 0x41, 0xe5, 0xba, 0x17, 0xfa, 0xad, 0x3e,
  0xd0, 0x91, 0xbe, 0xbc, 0xf0, 0x72, 0xeb, 0xbc, 0x95, 0x08, 0xd2, 0x3e,
  0x2c, 0x81, 0x83, 0xbd, 0xaa, 0xeb, 0x1d, 0x3e, 0x30, 0x19, 0xee, 0xbd,
  0xec, 0xe5, 0xb9, 0xbe, 0x9c, 0x43, 0xa4, 0xbe, 0xfc, 0x09, 0x8c, 0x3d,
  0x80, 0xe5, 0xd9, 0xbb, 0xa5, 0x7c, 0x9a, 0x3e, 0xeb, 0x1b, 0x6c, 0xbe,
  0x40, 0x3e, 0x2f, 0x3f, 0x4c, 0xf5, 0xb6, 0x3d, 0xe5, 0xc1, 0xc5, 0xbe,
  0x8e, 0x28, 0x80, 0xbe, 0x14, 0x0a, 0xb4, 0x3d, 0x2f, 0x7a, 0xb1, 0x3e,
  0x24, 0x57, 0xd5, 0xbd, 0x0d, 0xa3, 0x95, 0x3e, 0x9c, 0x2c, 0x73, 0xbe,
  0xd4, 0x36, 0x9b, 0x3d, 0x52, 0xe7, 0x36, 0xbf, 0x60, 0xf9, 0xa8, 0xbd,
  0xb0, 0xf3, 0xa2, 0xbe, 0x41, 0x1d, 0x9e, 0x3e, 0x81, 0xcf, 0x8e, 0x3e,
  0xcc, 0x54, 0x60, 0xbe, 0x91, 0x9a, 0x2c, 0x3f, 0x3c, 0xda, 0x23, 0xbe,
  0xa4, 0xea, 0xc8, 0xbe, 0x81, 0xb8, 0x18, 0x3f, 0x26, 0xe2, 0x26, 0x3e,
  0x74, 0xe0, 0xad, 0x3d, 0x96, 0xe4, 0x0e, 0xbe, 0x26, 0xf1, 0x72, 0x3e,
  0xc6, 0xae, 0x5e, 0x3e, 0xfe, 0xfb, 0x3c, 0x3e, 0x91, 0x7b, 0x68, 0xbe,
  0x56, 0x23, 0x7c, 0x3e, 0x9d, 0x0f, 0xc2, 0xbe, 0x50, 0xcc, 0xa4, 0xbd,
  0x16, 0xb9, 0x13, 0x3e, 0xb2, 0xea, 0x23, 0xbe, 0x80, 0x1e, 0x60, 0xbd,
  0x4e, 0x64, 0x05, 0x3e, 0xa2, 0xd7, 0x3d, 0x3e, 0xaa, 0xf6, 0xa0, 0xbe,
  0x48, 0x83, 0xd4, 0xbd, 0x00, 0x9d, 0xc6, 0xbe, 0x62, 0xc8, 0x26, 0x3e,
  0x05, 0x46, 0xc1, 0xbe, 0xf7, 0xb2, 0x3f, 0xbf, 0x1e, 0xa6, 0xc0, 0xbe,
  0x60, 0x94, 0xe9, 0xbe, 0xc0, 0x4d, 0x9d, 0xbc, 0x41, 0xe3, 0xa4, 0xbe,
  0xaf, 0x51, 0x95, 0x3e, 0x20, 0x7d, 0x08, 0xbc, 0x5a, 0xee, 0x29, 0x3e,
  0x77, 0xdc, 0xa5, 0x3e, 0x1e, 0xfc, 0x6c, 0x3e, 0x61, 0x3e, 0x6b, 0xbe,
  0xd6, 0xc6, 0xd9, 0x3c, 0x72, 0x14, 0x53, 0x3e, 0xab, 0x34, 0xc0, 0x3e,
  0x70, 0xb1, 0xd1, 0x3c, 0xd5, 0x76, 0x93, 0xbe, 0x9f, 0x21, 0xa0, 0xbe,
  0xac, 0xf9, 0xf8, 0x3d, 0x94, 0xb6, 0x09, 0xbe, 0xe0, 0xeb, 0x96, 0xbd,
  0x20, 0x2a, 0x10, 0xbc, 0xea, 0x94, 0x14, 0xbe, 0x1f, 0xf5, 0xad, 0x3e,
  0xb6, 0xcb, 0x30, 0x3e, 0xd9, 0x74, 0x1c, 0x3d, 0x9b, 0xe0, 0x7d, 0xbe,
  0x30, 0xe5, 0x17, 0x3d, 0xb5, 0xc6, 0xdf, 0x3d, 0xe6, 0x28, 0x7e, 0x3e,
  0x00, 0x00, 0x00, 0x00, 0x06, 0xff, 0xff, 0xff, 0x04, 0x00, 0x00, 0x00,
  0x40, 0x00, 0x00, 0x00, 0xe0, 0x3f, 0xb5, 0xbd, 0x7c, 0x08, 0x0e, 0xbf,
  0xfc, 0x43, 0xe3, 0xbd, 0xd4, 0x95, 0x0a, 0x3f, 0xe8, 0x1d, 0x17, 0xbf,
  0xfc, 0x16, 0xe2, 0x3e, 0x32, 0x80, 0x0e, 0xbf, 0xf8, 0xd3, 0xab, 0xbe,
  0x65, 0xef, 0x05, 0xbf, 0xff, 0xe4, 0x9a, 0xbe, 0x0a, 0xaf, 0x5c, 0xbe,
  0xf9, 0x2a, 0xa8, 0xbd, 0xc9, 0xfb, 0x83, 0xbe, 0xac, 0x9d, 0x69, 0xbe,
  0xed, 0x31, 0x2d, 0x3d, 0x68, 0x34, 0x87, 0xbd, 0x00, 0x00, 0x00, 0x00,
  0x56, 0xff, 0xff, 0xff, 0x04, 0x00, 0x00, 0x00, 0x40, 0x00, 0x00, 0x00,
  0x00, 0x00, 0x00, 0x00, 0x00, 0x00, 0x00, 0x00, 0x00, 0x00, 0x00, 0x00,
  0x7d, 0x05, 0xba, 0xbb, 0x00, 0x00, 0x00, 0x00, 0xe9, 0x84, 0x71, 0xbf,
  0x00, 0x00, 0x00, 0x00, 0x00, 0x00, 0x00, 0x00, 0x00, 0x00, 0x00, 0x00,
  0x00, 0x00, 0x00, 0x00, 0x00, 0x00, 0x00, 0x00, 0x6a, 0x19, 0x7e, 0x3f,
  0x00, 0x00, 0x00, 0x00, 0x00, 0x00, 0x00, 0x00, 0x11, 0x87, 0x4c, 0x3f,
  0x00, 0x00, 0x00, 0x00, 0x00, 0x00, 0x00, 0x00, 0xa6, 0xff, 0xff, 0xff,
  0x04, 0x00, 0x00, 0x00, 0x40, 0x00, 0x00, 0x00, 0xb7, 0x34, 0x0c, 0x3f,
  0x40, 0xd7, 0x5d, 0x3e, 0xe7, 0x5f, 0x39, 0xbe, 0xd0, 0xeb, 0xad, 0x3e,
  0x51, 0x76, 0x4b, 0x3d, 0xd2, 0x3c, 0x23, 0x3e, 0xcb, 0x8d, 0x0f, 0x3e,
  0x85, 0x38, 0xba, 0x3e, 0xcb, 0x03, 0x37, 0x3e, 0x00, 0x00, 0x00, 0x00,
  0x92, 0x36, 0xb5, 0x3e, 0xdd, 0x70, 0x4d, 0x3e, 0x0e, 0x0b, 0x15, 0x3f,
  0x00, 0x00, 0x00, 0x00, 0xef, 0x30, 0xb1, 0x3e, 0x6f, 0x67, 0x00, 0xbe,
  0x00, 0x00, 0x00, 0x00, 0x00, 0x00, 0x00, 0x00, 0x00, 0x00, 0x00, 0x00,
  0x00, 0x00, 0x06, 0x00, 0x08, 0x00, 0x04, 0x00, 0x06, 0x00, 0x00, 0x00,
  0x04, 0x00, 0x00, 0x00, 0x04, 0x00, 0x00, 0x00, 0x81, 0xa2, 0x61, 0xbe,
  0x00, 0x00, 0x00, 0x00, 0x00, 0x00, 0x00, 0x00, 0x88, 0xfb, 0xff, 0xff,
  0x00, 0x00, 0x00, 0x00, 0x00, 0x00, 0x00, 0x00, 0x00, 0x00, 0x00, 0x00,
  0x98, 0xfb, 0xff, 0xff, 0x00, 0x00, 0x00, 0x00, 0x0f, 0x00, 0x00, 0x00,
  0x4d, 0x4c, 0x49, 0x52, 0x20, 0x43, 0x6f, 0x6e, 0x76, 0x65, 0x72, 0x74,
  0x65, 0x64, 0x2e, 0x00, 0x01, 0x00, 0x00, 0x00, 0x14, 0x00, 0x00, 0x00,
  0x00, 0x00, 0x0e, 0x00, 0x18, 0x00, 0x04, 0x00, 0x08, 0x00, 0x0c, 0x00,
  0x10, 0x00, 0x14, 0x00, 0x0e, 0x00, 0x00, 0x00, 0x00, 0x01, 0x00, 0x00,
  0xf4, 0x00, 0x00, 0x00, 0xe8, 0x00, 0x00, 0x00, 0x14, 0x00, 0x00, 0x00,
  0x04, 0x00, 0x00, 0x00, 0x04, 0x00, 0x00, 0x00, 0x6d, 0x61, 0x69, 0x6e,
  0x00, 0x00, 0x00, 0x00, 0x03, 0x00, 0x00, 0x00, 0x90, 0x00, 0x00, 0x00,
  0x48, 0x00, 0x00, 0x00, 0x04, 0x00, 0x00, 0x00, 0xce, 0xff, 0xff, 0xff,
  0x00, 0x00, 0x00, 0x08, 0x18, 0x00, 0x00, 0x00, 0x0c, 0x00, 0x00, 0x00,
  0x04, 0x00, 0x00, 0x00, 0x14, 0xfc, 0xff, 0xff, 0x01, 0x00, 0x00, 0x00,
  0x09, 0x00, 0x00, 0x00, 0x03, 0x00, 0x00, 0x00, 0x08, 0x00, 0x00, 0x00,
  0x06, 0x00, 0x00, 0x00, 0x01, 0x00, 0x00, 0x00, 0x00, 0x00, 0x0e, 0x00,
  0x14, 0x00, 0x00, 0x00, 0x08, 0x00, 0x0c, 0x00, 0x07, 0x00, 0x10, 0x00,
  0x0e, 0x00, 0x00, 0x00, 0x00, 0x00, 0x00, 0x08, 0x1c, 0x00, 0x00, 0x00,
  0x10, 0x00, 0x00, 0x00, 0x04, 0x00, 0x00, 0x00, 0xba, 0xff, 0xff, 0xff,
  0x00, 0x00, 0x00, 0x01, 0x01, 0x00, 0x00, 0x00, 0x08, 0x00, 0x00, 0x00,
  0x03, 0x00, 0x00, 0x00, 0x07, 0x00, 0x00, 0x00, 0x05, 0x00, 0x00, 0x00,
  0x02, 0x00, 0x00, 0x00, 0x00, 0x00, 0x0e, 0x00, 0x16, 0x00, 0x00, 0x00,
  0x08, 0x00, 0x0c, 0x00, 0x07, 0x00, 0x10, 0x00, 0x0e, 0x00, 0x00, 0x00,
  0x00, 0x00, 0x00, 0x08, 0x24, 0x00, 0x00, 0x00, 0x18, 0x00, 0x00, 0x00,
  0x0c, 0x00, 0x00, 0x00, 0x00, 0x00, 0x06, 0x00, 0x08, 0x00, 0x07, 0x00,
  0x06, 0x00, 0x00, 0x00, 0x00, 0x00, 0x00, 0x01, 0x01, 0x00, 0x00, 0x00,
  0x07, 0x00, 0x00, 0x00, 0x03, 0x00, 0x00, 0x00, 0x00, 0x00, 0x00, 0x00,
  0x04, 0x00, 0x00, 0x00, 0x03, 0x00, 0x00, 0x00, 0x01, 0x00, 0x00, 0x00,
  0x09, 0x00, 0x00, 0x00, 0x01, 0x00, 0x00, 0x00, 0x00, 0x00, 0x00, 0x00,
  0x0a, 0x00, 0x00, 0x00, 0x08, 0x03, 0x00, 0x00, 0xbc, 0x02, 0x00, 0x00,
  0x74, 0x02, 0x00, 0x00, 0x40, 0x02, 0x00, 0x00, 0xfc, 0x01, 0x00, 0x00,
  0xb4, 0x01, 0x00, 0x00, 0x6c, 0x01, 0x00, 0x00, 0xe8, 0x00, 0x00, 0x00,
  0x5c, 0x00, 0x00, 0x00, 0x04, 0x00, 0x00, 0x00, 0x34, 0xfd, 0xff, 0xff,
  0x44, 0x00, 0x00, 0x00, 0x0a, 0x00, 0x00, 0x00, 0x1c, 0x00, 0x00, 0x00,
  0x14, 0x00, 0x00, 0x00, 0x04, 0x00, 0x00, 0x00, 0x02, 0x00, 0x00, 0x00,
  0xff, 0xff, 0xff, 0xff, 0x01, 0x00, 0x00, 0x00, 0x20, 0xfd, 0xff, 0xff,
  0x19, 0x00, 0x00, 0x00, 0x53, 0x74, 0x61, 0x74, 0x65, 0x66, 0x75, 0x6c,
  0x50, 0x61, 0x72, 0x74, 0x69, 0x74, 0x69, 0x6f, 0x6e, 0x65, 0x64, 0x43,
  0x61, 0x6c, 0x6c, 0x3a, 0x30, 0x00, 0x00, 0x00, 0x02, 0x00, 0x00, 0x00,
  0x01, 0x00, 0x00, 0x00, 0x01, 0x00, 0x00, 0x00, 0x88, 0xfd, 0xff, 0xff,
  0x78, 0x00, 0x00, 0x00, 0x09, 0x00, 0x00, 0x00, 0x1c, 0x00, 0x00, 0x00,
  0x14, 0x00, 0x00, 0x00, 0x04, 0x00, 0x00, 0x00, 0x02, 0x00, 0x00, 0x00,
  0xff, 0xff, 0xff, 0xff, 0x10, 0x00, 0x00, 0x00, 0x74, 0xfd, 0xff, 0xff,
  0x4c, 0x00, 0x00, 0x00, 0x73, 0x65, 0x71, 0x75, 0x65, 0x6e, 0x74, 0x69,
  0x61, 0x6c, 0x2f, 0x64, 0x65, 0x6e, 0x73, 0x65, 0x5f, 0x31, 0x2f, 0x4d,
  0x61, 0x74, 0x4d, 0x75, 0x6c, 0x3b, 0x73, 0x65, 0x71, 0x75, 0x65, 0x6e,
  0x74, 0x69, 0x61, 0x6c, 0x2f, 0x64, 0x65, 0x6e, 0x73, 0x65, 0x5f, 0x31,
  0x2f, 0x52, 0x65, 0x6c, 0x75, 0x3b, 0x73, 0x65, 0x71, 0x75, 0x65, 0x6e,
  0x74, 0x69, 0x61, 0x6c, 0x2f, 0x64, 0x65, 0x6e, 0x73, 0x65, 0x5f, 0x31,
  0x2f, 0x42, 0x69, 0x61, 0x73, 0x41, 0x64, 0x64, 0x00, 0x00, 0x00, 0x00,
  0x02, 0x00, 0x00, 0x00, 0x01, 0x00, 0x00, 0x00, 0x10, 0x00, 0x00, 0x00,
  0x10, 0xfe, 0xff, 0xff, 0x70, 0x00, 0x00, 0x00, 0x08, 0x00, 0x00, 0x00,
  0x1c, 0x00, 0x00, 0x00, 0x14, 0x00, 0x00, 0x00, 0x04, 0x00, 0x00, 0x00,
  0x02, 0x00, 0x00, 0x00, 0xff, 0xff, 0xff, 0xff, 0x10, 0x00, 0x00, 0x00,
  0xfc, 0xfd, 0xff, 0xff, 0x46, 0x00, 0x00, 0x00, 0x73, 0x65, 0x71, 0x75,
  0x65, 0x6e, 0x74, 0x69, 0x61, 0x6c, 0x2f, 0x64, 0x65, 0x6e, 0x73, 0x65,
  0x2f, 0x4d, 0x61, 0x74, 0x4d, 0x75, 0x6c, 0x3b, 0x73, 0x65, 0x71, 0x75,
  0x65, 0x6e, 0x74, 0x69, 0x61, 0x6c, 0x2f, 0x64, 0x65, 0x6e, 0x73, 0x65,
  0x2f, 0x52, 0x65, 0x6c, 0x75, 0x3b, 0x73, 0x65, 0x71, 0x75, 0x65, 0x6e,
  0x74, 0x69, 0x61, 0x6c, 0x2f, 0x64, 0x65, 0x6e, 0x73, 0x65, 0x2f, 0x42,
  0x69, 0x61, 0x73, 0x41, 0x64, 0x64, 0x00, 0x00, 0x02, 0x00, 0x00, 0x00,
  0x01, 0x00, 0x00, 0x00, 0x10, 0x00, 0x00, 0x00, 0xd2, 0xfe, 0xff, 0xff,
  0x34, 0x00, 0x00, 0x00, 0x07, 0x00, 0x00, 0x00, 0x0c, 0x00, 0x00, 0x00,
  0x04, 0x00, 0x00, 0x00, 0x6c, 0xfe, 0xff, 0xff, 0x19, 0x00, 0x00, 0x00,
  0x73, 0x65, 0x71, 0x75, 0x65, 0x6e, 0x74, 0x69, 0x61, 0x6c, 0x2f, 0x64,
  0x65, 0x6e, 0x73, 0x65, 0x5f, 0x32, 0x2f, 0x4d, 0x61, 0x74, 0x4d, 0x75,
  0x6c, 0x00, 0x00, 0x00, 0x02, 0x00, 0x00, 0x00, 0x01, 0x00, 0x00, 0x00,
  0x10, 0x00, 0x00, 0x00, 0x16, 0xff, 0xff, 0xff, 0x34, 0x00, 0x00, 0x00,
  0x06, 0x00, 0x00, 0x00, 0x0c, 0x00, 0x00, 0x00, 0x04, 0x00, 0x00, 0x00,
  0xb0, 0xfe, 0xff, 0xff, 0x19, 0x00, 0x00, 0x00, 0x73, 0x65, 0x71, 0x75,
  0x65, 0x6e, 0x74, 0x69, 0x61, 0x6c, 0x2f, 0x64, 0x65, 0x6e, 0x73, 0x65,
  0x5f, 0x31, 0x2f, 0x4d, 0x61, 0x74, 0x4d, 0x75, 0x6c, 0x00, 0x00, 0x00,
  0x02, 0x00, 0x00, 0x00, 0x10, 0x00, 0x00, 0x00, 0x10, 0x00, 0x00, 0x00,
  0x5a, 0xff, 0xff, 0xff, 0x30, 0x00, 0x00, 0x00, 0x05, 0x00, 0x00, 0x00,
  0x0c, 0x00, 0x00, 0x00, 0x04, 0x00, 0x00, 0x00, 0xf4, 0xfe, 0xff, 0xff,
  0x17, 0x00, 0x00, 0x00, 0x73, 0x65, 0x71, 0x75, 0x65, 0x6e, 0x74, 0x69,
  0x61, 0x6c, 0x2f, 0x64, 0x65, 0x6e, 0x73, 0x65, 0x2f, 0x4d, 0x61, 0x74,
  0x4d, 0x75, 0x6c, 0x00, 0x02, 0x00, 0x00, 0x00, 0x10, 0x00, 0x00, 0x00,
  0x01, 0x00, 0x00, 0x00, 0x9a, 0xff, 0xff, 0xff, 0x24, 0x00, 0x00, 0x00,
  0x04, 0x00, 0x00, 0x00, 0x0c, 0x00, 0x00, 0x00, 0x04, 0x00, 0x00, 0x00,
  0x34, 0xff, 0xff, 0xff, 0x0a, 0x00, 0x00, 0x00, 0x64, 0x65, 0x6e, 0x73,
  0x65, 0x2f, 0x62, 0x69, 0x61, 0x73, 0x00, 0x00, 0x01, 0x00, 0x00, 0x00,
  0x10, 0x00, 0x00, 0x00, 0xca, 0xff, 0xff, 0xff, 0x28, 0x00, 0x00, 0x00,
  0x03, 0x00, 0x00, 0x00, 0x0c, 0x00, 0x00, 0x00, 0x04, 0x00, 0x00, 0x00,
  0x64, 0xff, 0xff, 0xff, 0x0c, 0x00, 0x00, 0x00, 0x64, 0x65, 0x6e, 0x73,
  0x65, 0x5f, 0x31, 0x2f, 0x62, 0x69, 0x61, 0x73, 0x00, 0x00, 0x00, 0x00,
  0x01, 0x00, 0x00, 0x00, 0x10, 0x00, 0x00, 0x00, 0x00, 0x00, 0x0e, 0x00,
  0x14, 0x00, 0x04, 0x00, 0x00, 0x00, 0x08, 0x00, 0x0c, 0x00, 0x10, 0x00,
  0x0e, 0x00, 0x00, 0x00, 0x28, 0x00, 0x00, 0x00, 0x02, 0x00, 0x00, 0x00,
  0x0c, 0x00, 0x00, 0x00, 0x04, 0x00, 0x00, 0x00, 0xa8, 0xff, 0xff, 0xff,
  0x0c, 0x00, 0x00, 0x00, 0x64, 0x65, 0x6e, 0x73, 0x65, 0x5f, 0x32, 0x2f,
  0x62, 0x69, 0x61, 0x73, 0x00, 0x00, 0x00, 0x00, 0x01, 0x00, 0x00, 0x00,
  0x01, 0x00, 0x00, 0x00, 0x14, 0x00, 0x18, 0x00, 0x04, 0x00, 0x00, 0x00,
  0x08, 0x00, 0x0c, 0x00, 0x10, 0x00, 0x00, 0x00, 0x00, 0x00, 0x14, 0x00,
  0x14, 0x00, 0x00, 0x00, 0x4c, 0x00, 0x00, 0x00, 0x01, 0x00, 0x00, 0x00,
  0x20, 0x00, 0x00, 0x00, 0x18, 0x00, 0x00, 0x00, 0x04, 0x00, 0x00, 0x00,
  0x02, 0x00, 0x00, 0x00, 0xff, 0xff, 0xff, 0xff, 0x01, 0x00, 0x00, 0x00,
  0x04, 0x00, 0x04, 0x00, 0x04, 0x00, 0x00, 0x00, 0x1d, 0x00, 0x00, 0x00,
  0x73, 0x65, 0x72, 0x76, 0x69, 0x6e, 0x67, 0x5f, 0x64, 0x65, 0x66, 0x61,
  0x75, 0x6c, 0x74, 0x5f, 0x64, 0x65, 0x6e, 0x73, 0x65, 0x5f, 0x69, 0x6e,
  0x70, 0x75, 0x74, 0x3a, 0x30, 0x00, 0x00, 0x00, 0x02, 0x00, 0x00, 0x00,
  0x01, 0x00, 0x00, 0x00, 0x01, 0x00, 0x00, 0x00, 0x01, 0x00, 0x00, 0x00,
  0x10, 0x00, 0x00, 0x00, 0x0c, 0x00, 0x10, 0x00, 0x07, 0x00, 0x00, 0x00,
  0x08, 0x00, 0x0c, 0x00, 0x0c, 0x00, 0x00, 0x00, 0x00, 0x00, 0x00, 0x09,
  0x09, 0x00, 0x00, 0x00, 0x09, 0x00, 0x00, 0x00
};
unsigned int sine_model_quantized_tflite_len = 3008;
